TRT-100300-EntropyCalibration2
input: 3cb3e423
getitem: 3dd843ca
val_8_output: 3c367d3d
ONNXTRT_Broadcast_output: 3c367d3d
val_9: 3d98ec1c
val_10: 3c010a14
val_11_output: 3c010a14
ONNXTRT_Broadcast_1_output: 3c010a14
val_12: 3c810a14
val_13_output: 3b810a14
ONNXTRT_Broadcast_3_output: 3b810a14
val_14: 3c010a14
gelu: 3e2ad15e
getitem_3: 3d0feb48
ONNXTRT_Broadcast_5_output: 3c367d3d
val_22: 3ccb8845
val_23: 3c03159d
ONNXTRT_Broadcast_7_output: 3c010a14
val_25: 3c81d44c
ONNXTRT_Broadcast_9_output: 3b810a14
val_27: 3c01d44c
gelu_1: 3cf0f695
getitem_6: 3ef1ee31
ONNXTRT_Broadcast_11_output: 3c367d3d
val_35: 3eab1217
val_36: 3c010a14
ONNXTRT_Broadcast_13_output: 3c010a14
val_38: 3c810a14
ONNXTRT_Broadcast_15_output: 3b810a14
val_40: 3c010a14
gelu_2: 3e45c037
getitem_9: 3eaafefc
ONNXTRT_Broadcast_17_output: 3c367d3d
val_48: 3e71d32d
val_49: 3c010a14
ONNXTRT_Broadcast_19_output: 3c010a14
val_51: 3c810a14
ONNXTRT_Broadcast_21_output: 3b810a14
val_53: 3c010a14
gelu_3: 3e404cb1
getitem_12: 3e75696f
view_output: 3aca00b4
mul: 3d1171e5
add: 3d1b3074
getitem_15: 3e089561
ONNXTRT_Broadcast_23_output: 3c367d3d
val_73: 3dc12882
val_74: 3c010a14
ONNXTRT_Broadcast_25_output: 3c010a14
val_76: 3c810a14
ONNXTRT_Broadcast_27_output: 3b810a14
val_78: 3c010a14
gelu_4: 3db5f601
getitem_18: 3e573d14
ONNXTRT_Broadcast_29_output: 3c367d3d
val_86: 3e18325a
val_87: 3c010a14
ONNXTRT_Broadcast_31_output: 3c010a14
val_89: 3c810a14
ONNXTRT_Broadcast_33_output: 3b810a14
val_91: 3c010a14
gelu_5: 3dc18b82
getitem_21: 3e3688ec
view_1_output: 3b147248
mul_1: 3d22913a
add_1: 3d4f7135
getitem_24: 3ce6ae16
getitem_27: 3db3a36d
ONNXTRT_Broadcast_35_output: 3c367d3d
val_117: 3d7e0c0b
val_118: 3c010a14
ONNXTRT_Broadcast_37_output: 3c010a14
val_120: 3c810a14
ONNXTRT_Broadcast_39_output: 3b810a14
val_122: 3c010a14
gelu_6: 3d6f9883
getitem_30: 3e0f0c1a
ONNXTRT_Broadcast_41_output: 3c367d3d
val_130: 3dca4ca5
val_131: 3c010a14
ONNXTRT_Broadcast_43_output: 3c010a14
val_133: 3c810a14
ONNXTRT_Broadcast_45_output: 3b810a14
val_135: 3c010a14
gelu_7: 3d6cf3bc
getitem_33: 3e10c33f
view_2_output: 3aebe36d
mul_2: 3c9e237f
add_2: 3d0522e3
getitem_36: 3d791e14
ONNXTRT_Broadcast_47_output: 3c367d3d
val_155: 3d302715
val_156: 3c010a14
ONNXTRT_Broadcast_49_output: 3c010a14
val_158: 3c810a14
ONNXTRT_Broadcast_51_output: 3b810a14
val_160: 3c010a14
gelu_8: 3d31c06f
getitem_39: 3d9fb901
ONNXTRT_Broadcast_53_output: 3c367d3d
val_168: 3d61e1c9
val_169: 3c010a14
ONNXTRT_Broadcast_55_output: 3c010a14
val_171: 3c810a14
ONNXTRT_Broadcast_57_output: 3b810a14
val_173: 3c010a14
gelu_9: 3cf0d947
getitem_42: 3e5649b4
view_3_output: 3b429c34
mul_3: 3d044c8d
add_3: 3d27a101
getitem_45: 3cdd6cf3
getitem_48: 3d710869
ONNXTRT_Broadcast_59_output: 3c367d3d
val_199: 3d2a6f9b
val_200: 3c01d3a6
ONNXTRT_Broadcast_61_output: 3c010a14
val_202: 3c81d3a6
ONNXTRT_Broadcast_63_output: 3b810a14
val_204: 3c01d3a6
gelu_10: 3d30c79b
getitem_51: 3dd7b855
ONNXTRT_Broadcast_65_output: 3c367d3d
val_212: 3d988980
val_213: 3c010a14
ONNXTRT_Broadcast_67_output: 3c010a14
val_215: 3c810a14
ONNXTRT_Broadcast_69_output: 3b810a14
val_217: 3c010a14
gelu_11: 3ce87f41
getitem_54: 3dead903
view_4_output: 3a6fe13d
mul_4: 3bba8b4d
add_4: 3cf04c23
getitem_57: 3d377557
ONNXTRT_Broadcast_71_output: 3c367d3d
val_237: 3d01b983
val_238: 3c010a14
ONNXTRT_Broadcast_73_output: 3c010a14
val_240: 3c810a14
ONNXTRT_Broadcast_75_output: 3b810a14
val_242: 3c010a14
gelu_12: 3d0dd1d9
getitem_60: 3e151199
ONNXTRT_Broadcast_77_output: 3c367d3d
val_250: 3dd2d0a6
val_251: 3c010a14
ONNXTRT_Broadcast_79_output: 3c010a14
val_253: 3c810a14
ONNXTRT_Broadcast_81_output: 3b810a14
val_255: 3c010a14
gelu_13: 3ced22de
getitem_63: 3dd6609d
view_5_output: 3a6b8655
mul_5: 3ba29bce
add_5: 3cf1851b
getitem_66: 3d699d75
ONNXTRT_Broadcast_83_output: 3c367d3d
val_275: 3d2530d9
val_276: 3c010a14
ONNXTRT_Broadcast_85_output: 3c010a14
val_278: 3c810a14
ONNXTRT_Broadcast_87_output: 3b810a14
val_280: 3c010a14
gelu_14: 3cefa7d7
getitem_69: 3d7d473a
ONNXTRT_Broadcast_89_output: 3c367d3d
val_288: 3d331843
val_289: 3c010a14
ONNXTRT_Broadcast_91_output: 3c010a14
val_291: 3c810a14
ONNXTRT_Broadcast_93_output: 3b810a14
val_293: 3c010a14
gelu_15: 3d72d1d8
getitem_72: 3dfbce61
view_6_output: 3a95c092
mul_6: 3b6df816
add_6: 3d01c011
getitem_75: 3d21af18
ONNXTRT_Broadcast_95_output: 3c367d3d
val_313: 3ce4a7d9
val_314: 3c0213e2
ONNXTRT_Broadcast_97_output: 3c010a14
val_316: 3c821405
ONNXTRT_Broadcast_99_output: 3b810a14
val_318: 3c021405
gelu_16: 3ccd6bdd
getitem_78: 3d8fdc45
ONNXTRT_Broadcast_101_output: 3c367d3d
val_326: 3d4b7309
val_327: 3c010a14
ONNXTRT_Broadcast_103_output: 3c010a14
val_329: 3c810a14
ONNXTRT_Broadcast_105_output: 3b810a14
val_331: 3c010a14
gelu_17: 3d10cd09
getitem_81: 3e30540e
view_7_output: 3a4b22a8
mul_7: 3bfd6d73
add_7: 3d0815cc
getitem_84: 3d9fd267
getitem_87: 3d37d168
view_8: 3d37d168
permute: 3d37d168
getitem_90: 3d4c6c8f
view_9: 3d4c6c8f
getitem_93: 3d9d19ab
getitem_96: 3d98dbe3
view_10: 3d9d19ab
permute_2: 3d9d19ab
matmul: 3f29b09d
val_392_output: 3ab67d3d
ONNXTRT_Broadcast_110_output: 3ab67d3d
mul_8: 3deffa4e
index_output: 3c1b29c7
ONNXTRT_Broadcast_112_output: 3c1b29c7
add_8: 3e111862
conv2d_33: 3e1150f7
node_softmax_output: 3b9a2eb3
softmax: 3b9a2eb3
conv2d_34: 3b69a614
matmul_1: 3d808fc6
transpose: 3d808fc6
_unsafe_view: 3d808fc6
add_9: 3dd712a5
upsample_bilinear2d: 3dcf754d
ONNXTRT_Broadcast_116_output: 3c367d3d
val_409: 3d92b1f3
val_410: 3c010a14
ONNXTRT_Broadcast_118_output: 3c010a14
val_412: 3c810a14
ONNXTRT_Broadcast_120_output: 3b810a14
val_414: 3c010a14
gelu_18: 3ccde936
getitem_99: 3e3c57b2
view_11_output: 3b0668f8
mul_9: 3c819e3a
add_10: 3ca7520e
getitem_102: 3d26762f
ONNXTRT_Broadcast_122_output: 3c367d3d
val_434: 3ceb698f
val_435: 3c031605
ONNXTRT_Broadcast_124_output: 3c010a14
val_437: 3c81102f
ONNXTRT_Broadcast_126_output: 3b810a14
val_439: 3c01102f
gelu_19: 3cb28f9c
getitem_105: 3da6e7c7
ONNXTRT_Broadcast_128_output: 3c367d3d
val_447: 3d6c0a33
val_448: 3c010a14
ONNXTRT_Broadcast_130_output: 3c010a14
val_450: 3c810a14
ONNXTRT_Broadcast_132_output: 3b810a14
val_452: 3c010a14
gelu_20: 3d05d997
getitem_108: 3e1310a0
view_12_output: 3aa75e06
mul_10: 3c59f8d6
add_11: 3cb12d29
getitem_111: 3d98cc7a
getitem_114: 3d4478a6
view_13: 3d4478a6
permute_3: 3d4478a6
getitem_117: 3d6403a9
view_14: 3d6403a9
getitem_120: 3d8abbb4
getitem_123: 3d9de257
view_15: 3d8abbb4
permute_5: 3d8abbb4
matmul_2: 3f27bf97
ONNXTRT_Broadcast_137_output: 3ab67d3d
mul_11: 3ded3b69
index_1_output: 3c00edf7
ONNXTRT_Broadcast_139_output: 3c00edf7
add_12: 3de46e57
conv2d_44: 3ddbfee7
node_softmax_1_output: 3bb25ba8
softmax_1: 3bb25ba8
conv2d_45: 3b66622f
matmul_3: 3d33469c
transpose_1: 3d33469c
_unsafe_view_1: 3d33469c
add_13: 3dbc10fa
upsample_bilinear2d_1: 3dafc006
ONNXTRT_Broadcast_143_output: 3c367d3d
val_528: 3d788c55
val_529: 3c010a14
ONNXTRT_Broadcast_145_output: 3c010a14
val_531: 3c811221
ONNXTRT_Broadcast_147_output: 3b810a14
val_533: 3c011221
gelu_21: 3cce8ae4
getitem_126: 3e12fd3a
view_16_output: 3ac240ee
mul_12: 3c5d63ff
add_14: 3cd34b67
getitem_129: 3d4180bd
ONNXTRT_Broadcast_149_output: 3c367d3d
val_553: 3d08d3c5
val_554: 3c031627
ONNXTRT_Broadcast_151_output: 3c010a14
val_556: 3c89a345
ONNXTRT_Broadcast_153_output: 3b810a14
val_558: 3c09a345
gelu_22: 3cebeecd
getitem_132: 3d9cd9de
ONNXTRT_Broadcast_155_output: 3c367d3d
val_566: 3d5dd224
val_567: 3c010a14
ONNXTRT_Broadcast_157_output: 3c010a14
val_569: 3c810a14
ONNXTRT_Broadcast_159_output: 3b810a14
val_571: 3c010a14
gelu_23: 3cf4e49b
getitem_135: 3e0894dd
view_17_output: 3adfa4c2
mul_13: 3c8b0149
add_15: 3cd90787
getitem_138: 3d03798e
conv2d_51: 3d0e51f4
avg_pool2d: 3cd90787
add_16: 3d727d33
getitem_141: 3d4a17e5
view_18: 3d4a17e5
permute_6: 3d4a17e5
getitem_144: 3d55675c
view_19: 3d55675c
getitem_147: 3d82fb1b
getitem_150: 3d28e3e2
view_20: 3d82fb1b
permute_8: 3d82fb1b
matmul_4: 3ee8619b
val_632_output: 3b010a14
ONNXTRT_Broadcast_164_output: 3b010a14
mul_14: 3de8619b
val_639: 3ca34c17
index_2: 3ca34c17
ONNXTRT_Broadcast_167_output: 3ca34c17
add_17: 3df3c6af
node_softmax_2_output: 3a9500ef
softmax_2: 3a9500ef
matmul_5: 3d626cba
transpose_2: 3d626cba
_unsafe_view_2: 3d626cba
add_18: 3d815a7a
ONNXTRT_Broadcast_171_output: 3c367d3d
val_647: 3d36eef1
val_648: 3c04177e
ONNXTRT_Broadcast_173_output: 3c010a14
val_650: 3c841797
ONNXTRT_Broadcast_175_output: 3b810a14
val_652: 3c041797
gelu_24: 3d12cb66
getitem_153: 3d12579a
add_19: 3d891f9d
getitem_156: 3d3f29df
ONNXTRT_Broadcast_177_output: 3c367d3d
val_666: 3d072c4d
val_667: 3c01d183
ONNXTRT_Broadcast_179_output: 3c010a14
val_669: 3c8403aa
ONNXTRT_Broadcast_181_output: 3b810a14
val_671: 3c0403aa
gelu_25: 3c3bce56
getitem_159: 3dcdf91a
ONNXTRT_Broadcast_183_output: 3c367d3d
val_679: 3d91a51b
val_680: 3c010a14
ONNXTRT_Broadcast_185_output: 3c010a14
val_682: 3c810a14
ONNXTRT_Broadcast_187_output: 3b810a14
val_684: 3c010a14
gelu_26: 3d69d154
getitem_162: 3e0e7a2a
view_21_output: 3aa16da3
mul_15: 3c5e9812
add_20: 3d8b546e
getitem_165: 3d2c3f88
ONNXTRT_Broadcast_189_output: 3c367d3d
val_704: 3cf39880
val_705: 3c03144e
ONNXTRT_Broadcast_191_output: 3c010a14
val_707: 3c82c2d6
ONNXTRT_Broadcast_193_output: 3b810a14
val_709: 3c02c2d6
gelu_27: 3c31c785
getitem_168: 3db6360a
ONNXTRT_Broadcast_195_output: 3c367d3d
val_717: 3d80d7bb
val_718: 3c053a74
ONNXTRT_Broadcast_197_output: 3c010a14
val_720: 3c8a811a
ONNXTRT_Broadcast_199_output: 3b810a14
val_722: 3c0a811a
gelu_28: 3d0da39e
getitem_171: 3e185c3e
view_22_output: 3a983c54
mul_16: 3c732af5
add_21: 3d93022f
getitem_174: 3d86f848
view_23: 3d86f848
permute_9: 3d86f848
getitem_177: 3d7663b2
view_24: 3d7663b2
getitem_180: 3d19f0f7
getitem_183: 3d349e71
view_25: 3d19f0f7
permute_11: 3d19f0f7
matmul_6: 3fb719ba
ONNXTRT_Broadcast_204_output: 3ab67d3d
mul_17: 3e8178bb
index_3_output: 3c403452
ONNXTRT_Broadcast_206_output: 3c403452
add_22: 3e8ab726
conv2d_67: 3e906fe9
node_softmax_3_output: 3bfb9c4b
softmax_3: 3bfb9c4b
conv2d_68: 3b8ca49e
matmul_7: 3c88df7b
transpose_3: 3c88df7b
_unsafe_view_3: 3c88df7b
add_23: 3d6c8291
ONNXTRT_Broadcast_210_output: 3c367d3d
val_791: 3d273ce4
val_792: 3c021427
ONNXTRT_Broadcast_212_output: 3c010a14
val_794: 3c82e1b5
ONNXTRT_Broadcast_214_output: 3b810a14
val_796: 3c02e1b5
gelu_29: 3c4bee25
getitem_186: 3e7497c4
view_26_output: 3abe8ea9
mul_18: 3cf776fa
add_24: 3d9c8c8c
getitem_189: 3d32a1b1
ONNXTRT_Broadcast_216_output: 3c367d3d
val_816: 3cfc9f8e
val_817: 3c053086
ONNXTRT_Broadcast_218_output: 3c010a14
val_819: 3c816348
ONNXTRT_Broadcast_220_output: 3b810a14
val_821: 3c016348
gelu_30: 3c1c82d2
getitem_192: 3d665643
ONNXTRT_Broadcast_222_output: 3c367d3d
val_829: 3d22df72
val_830: 3c0110a5
ONNXTRT_Broadcast_224_output: 3c010a14
val_832: 3c86d74e
ONNXTRT_Broadcast_226_output: 3b810a14
val_834: 3c06d74e
gelu_31: 3cd262ba
getitem_195: 3e83aad7
view_27_output: 3ac3dffa
mul_19: 3d0e4e64
add_25: 3dbcc25a
getitem_198: 3d68b594
view_28: 3d68b594
permute_12: 3d68b594
getitem_201: 3d495ea3
view_29: 3d495ea3
getitem_204: 3dbc2515
getitem_207: 3d702302
view_30: 3dbc2515
permute_14: 3dbc2515
matmul_8: 3f9c59a2
ONNXTRT_Broadcast_231_output: 3ab67d3d
mul_20: 3e5d1ccb
index_4_output: 3c42f161
ONNXTRT_Broadcast_233_output: 3c42f161
add_26: 3e1d5102
conv2d_77: 3e5486d9
node_softmax_4_output: 3bda7d8e
softmax_4: 3bda7d8e
conv2d_78: 3b996692
matmul_9: 3d719c38
transpose_4: 3d719c38
_unsafe_view_4: 3d719c38
add_27: 3db412a4
ONNXTRT_Broadcast_237_output: 3c367d3d
val_903: 3d7ea954
val_904: 3c010a14
ONNXTRT_Broadcast_239_output: 3c010a14
val_906: 3c88357c
ONNXTRT_Broadcast_241_output: 3b810a14
val_908: 3c08357c
gelu_32: 3ccc734c
getitem_210: 3e5c31b2
view_31_output: 3acaaa9e
mul_21: 3cf96b5c
add_28: 3de09c7c
getitem_213: 3dbc7a10
ONNXTRT_Broadcast_243_output: 3c367d3d
val_928: 3d8545f3
val_929: 3c010a14
ONNXTRT_Broadcast_245_output: 3c010a14
val_931: 3c82f5e7
ONNXTRT_Broadcast_247_output: 3b810a14
val_933: 3c02f5e7
gelu_33: 3c8cbee3
getitem_216: 3d0f673c
ONNXTRT_Broadcast_249_output: 3c367d3d
val_941: 3ccacd88
val_942: 3c061be2
ONNXTRT_Broadcast_251_output: 3c010a14
val_944: 3c82f5c2
ONNXTRT_Broadcast_253_output: 3b810a14
val_946: 3c02f5c2
gelu_34: 3cca4b8b
getitem_219: 3e07af98
view_32_output: 3ac80f6a
mul_22: 3c8d37ec
add_29: 3e02fd78
getitem_222: 3de793fe
mean: 3d3d3c7f
head.weight_output: 3a5774a1
node_linear_output: 3e062344
head.bias_output: 39dcef49
ONNXTRT_Broadcast_255_output: 39dcef49
linear: 3e07ad66
head_dist.weight_output: 3a5053a1
node_linear_1_output: 3e063e13
ONNXTRT_Broadcast_257_output: 39dcef49
linear_1: 3e0119b9
add_30: 3e81f224
scalar_tensor_default_output: 3c810a14
ONNXTRT_Broadcast_259_output: 3c810a14
logits: 3e01f224
