TRT-100300-EntropyCalibration2
input: 3cb3e423
getitem: 3f1902b1
val_16: 3c010a14
silu: 3e9ba0be
getitem_3: 3f2515b7
val_28: 3c010a14
silu_1: 3e9051a9
getitem_6: 3ef62752
val_42: 3c010a14
silu_2: 3e9f1dc7
getitem_9: 3eb851db
getitem_12: 3e82a7c9
val_65: 3c010a14
silu_3: 3d715c8b
getitem_15: 3e900a5e
add: 3ed5fea9
getitem_18: 3e479fc6
val_90: 3c01110f
silu_4: 3d91d72a
getitem_21: 3e7e1003
getitem_24: 3dafd53a
val_113: 3c01035f
silu_5: 3c3cfd8e
getitem_27: 3e375d9d
add_1: 3eb39244
getitem_30: 3da12e5f
val_136: 3c00f1d1
silu_6: 3d66f5fb
getitem_33: 3e8b9e5f
val_150: 3c010a14
silu_7: 3e2abfb8
mean: 3dab9971
conv2d_12: 3ea122c2
val_154: 3c08609a
silu_8: 3ddf1a97
conv2d_13: 3d92c758
sigmoid: 3c020757
mul: 3dc18ded
getitem_36: 3e957db1
getitem_39: 3dc2a0b4
val_177: 3c0313bf
silu_9: 3d0fa701
getitem_42: 3e272e2b
val_189: 3c010a14
silu_10: 3dc71fc9
mean_1: 3cf793a6
conv2d_17: 3dad49d5
val_192: 3c08499f
silu_11: 3dbcd68f
conv2d_18: 3db38119
sigmoid_1: 3c02f186
mul_1: 3ce15908
getitem_45: 3e0be453
add_2: 3e971e3b
getitem_48: 3db8f370
val_215: 3c031266
silu_12: 3d437460
getitem_51: 3e1e745d
val_227: 3c010a14
silu_13: 3dca8dde
mean_2: 3cc9111e
conv2d_22: 3d89ceb3
val_230: 3c018134
silu_14: 3d6b8efa
conv2d_23: 3d70b768
sigmoid_2: 3bfe3d90
mul_2: 3c6f5ec8
getitem_54: 3de59cfb
add_3: 3e999ffa
getitem_57: 3da58e1c
val_253: 3c0110ab
silu_15: 3d6a3e4c
getitem_60: 3e2ed551
val_265: 3c010a14
silu_16: 3e0ab6bf
mean_3: 3d069c33
conv2d_27: 3e1bece7
val_268: 3c00b7cd
silu_17: 3d40e1b4
conv2d_28: 3d4cc021
sigmoid_3: 3c0cbbee
mul_3: 3d62eb3f
getitem_63: 3e8b20bb
getitem_66: 3d97ee46
val_291: 3c00f122
silu_18: 3d254ba8
getitem_69: 3e0a9691
val_303: 3c010a14
silu_19: 3d369087
mean_4: 3cc9db1d
conv2d_32: 3d825204
val_306: 3c06ee00
silu_20: 3d91238f
conv2d_33: 3d46a28d
sigmoid_4: 3c06abe8
mul_4: 3cf544ad
getitem_72: 3e471a88
add_4: 3eb5ab44
getitem_75: 3d9fdd10
val_329: 3c011216
silu_21: 3d13ced9
getitem_78: 3e18d515
val_341: 3c010a14
silu_22: 3d93eeb0
mean_5: 3ccc5908
conv2d_37: 3d4408d4
val_344: 3c0263f4
silu_23: 3d634031
conv2d_38: 3d5e833b
sigmoid_5: 3c017c63
mul_5: 3cb7168c
getitem_81: 3e3fe6c6
add_5: 3ec5312e
getitem_84: 3d9b5aab
val_367: 3c00eef9
silu_24: 3d1200fc
getitem_87: 3e15e12a
val_379: 3c010a14
silu_25: 3d6a321d
mean_6: 3cc0e0e0
conv2d_42: 3d1ec5c7
val_382: 3c002f43
silu_26: 3d2302df
conv2d_43: 3d535330
sigmoid_6: 3bfda37b
mul_6: 3cb9a05e
getitem_90: 3e2a1ef6
add_6: 3ede8ad5
getitem_93: 3d9c790f
val_405: 3c01052f
silu_27: 3d1250e5
getitem_96: 3e1cb70a
val_417: 3c010a14
silu_28: 3d728f50
mean_7: 3cb59c97
conv2d_47: 3d526472
val_420: 3c01dcca
silu_29: 3d637773
conv2d_48: 3d57a3b5
sigmoid_7: 3bfd1c16
mul_7: 3d0f80da
getitem_99: 3e08bc4e
add_7: 3ed1701c
getitem_102: 3dad3ccd
val_443: 3c011088
silu_30: 3ce856c3
getitem_105: 3e141894
val_457: 3c010a14
silu_31: 3e139f05
mean_8: 3d561a4e
conv2d_52: 3f682ee8
val_460: 3c010a14
silu_32: 3f4ce4de
conv2d_53: 3e06e53e
sigmoid_8: 3c0aa545
mul_8: 3dcc39d0
getitem_108: 3e8acba7
getitem_111: 3d9245d9
val_483: 3c01106d
silu_33: 3ce6b8d1
getitem_114: 3e187b39
val_495: 3c010a14
silu_34: 3d354505
mean_9: 3cf341e7
conv2d_57: 3da93569
val_498: 3c087479
silu_35: 3d6566de
conv2d_58: 3d842fe2
sigmoid_9: 3bfbd986
mul_9: 3cf2dfc3
getitem_117: 3dde4e25
add_8: 3e9d7993
getitem_120: 3d996583
val_521: 3c01110a
silu_36: 3ce83d2d
getitem_123: 3e291fd5
val_533: 3c010a14
silu_37: 3d7014bf
mean_10: 3d1f5ef8
conv2d_62: 3dea7a16
val_536: 3c0267fc
silu_38: 3d917d2a
conv2d_63: 3dbe53ca
sigmoid_10: 3c0b9296
mul_10: 3ce94267
getitem_126: 3e049090
add_9: 3ea761e8
getitem_129: 3db97652
val_559: 3c010dda
silu_39: 3cd200fd
getitem_132: 3e254be1
val_571: 3c010a14
silu_40: 3d98cc74
mean_11: 3d082802
conv2d_67: 3dd221ae
val_574: 3c01ad3f
silu_41: 3d915041
conv2d_68: 3dac9692
sigmoid_11: 3c00c758
mul_11: 3ce5f9dd
getitem_135: 3e2291ab
add_10: 3ede46a3
getitem_138: 3de5b806
val_597: 3c0100ec
silu_42: 3cb23aef
getitem_141: 3e3b4748
val_609: 3c010a14
silu_43: 3d9bf1a4
mean_12: 3d1fd6cc
conv2d_72: 3e55099c
val_612: 3c020851
silu_44: 3e0ad40e
conv2d_73: 3df5e7e8
sigmoid_12: 3c07f9d9
mul_12: 3d21bc7e
getitem_144: 3e49b17d
add_11: 3f057f92
getitem_147: 3deaf0c1
val_635: 3c02138b
silu_45: 3d1461e1
getitem_150: 3e4676d7
val_647: 3c010a14
silu_46: 3d1e0e13
mean_13: 3d2144ff
conv2d_77: 3df8d5f7
val_650: 3c0a5eb8
silu_47: 3dbf43be
conv2d_78: 3df08500
sigmoid_13: 3c020ff7
mul_13: 3d2d439b
getitem_153: 3e63eb11
add_12: 3f44a17f
getitem_156: 3df708b4
val_673: 3c041793
silu_48: 3d1495af
getitem_159: 3e3cfc98
val_685: 3c010a14
silu_49: 3d6f8718
mean_14: 3d21d3cf
conv2d_82: 3e483353
val_688: 3c05ba2f
silu_50: 3d8ec6ec
conv2d_83: 3dfd5f9a
sigmoid_14: 3c075428
mul_14: 3cb588ff
getitem_162: 3e814628
add_13: 3f44ae8c
getitem_165: 3de5591d
val_711: 3c0417be
silu_51: 3cd5954a
getitem_168: 3e399335
val_723: 3c010a14
silu_52: 3ddc1bae
mean_15: 3d212656
conv2d_87: 3e2d6eeb
val_726: 3c01dcb1
silu_53: 3d67b164
conv2d_88: 3df6f3ae
sigmoid_15: 3c07463d
mul_15: 3cc79831
getitem_171: 3e589428
add_14: 3f689599
getitem_174: 3e7ca501
val_749: 3c010a14
silu_54: 3dc50ce5
mean_16: 3cfcdee8
view: 3cfcdee8
classifier.weight_output: 3b9af652
node_linear_output: 3f78188e
classifier.bias_output: 378324fe
ONNXTRT_Broadcast_output: 378324fe
logits: 3f78168a
