TRT-100300-EntropyCalibration2
input: 3cb3e423
getitem: 3dc00d7c
relu: 3d31e0fb
getitem_3: 3e167a79
relu_1: 3d9bd56e
getitem_6: 3db1d88f
relu_2: 3db21481
getitem_9: 3e093c39
relu_3: 3de11a16
getitem_12: 3e33fa96
relu_4: 3e1bc464
getitem_15: 3dc1a08a
getitem_18: 3e043771
relu_5: 3e0599a2
getitem_21: 3de1f8b0
relu_6: 3de1f8b0
getitem_24: 3dbc5399
getitem_27: 3df60d16
relu_7: 3de8ef4f
getitem_30: 3de75422
relu_8: 3d386060
getitem_33: 3d9bdf99
add: 3de62609
getitem_36: 3e12afab
relu_9: 3e020872
getitem_39: 3d82d0f8
relu_10: 3d82c00f
getitem_42: 3d6b0ad0
add_1: 3e0f8138
getitem_45: 3e2215d0
relu_11: 3e231f0d
getitem_48: 3d5b9144
relu_12: 3d53cf55
getitem_51: 3da887d2
add_2: 3e39c8a5
getitem_54: 3e0fbbdc
relu_13: 3e19fed5
getitem_57: 3db23647
relu_14: 3db23092
getitem_60: 3e81f245
add_3: 3eb9c81d
getitem_63: 3e050233
getitem_66: 3df56342
relu_15: 3d8c628b
getitem_69: 3f70d6bf
add_4: 3fa2a313
getitem_72: 3df53f94
getitem_75: 3e1dd1ee
relu_16: 3e394d59
getitem_78: 3dec7d8b
relu_17: 3df53da3
getitem_81: 3e854152
getitem_84: 3e0c909f
getitem_87: 3e2b91bb
relu_18: 3e2b91bb
getitem_90: 3e4aa953
relu_19: 3da4734e
getitem_93: 3dd38988
add_5: 3e8c4e00
getitem_96: 3e4c6c1b
relu_20: 3e45a8b0
getitem_99: 3dbaddb0
relu_21: 3d88d911
getitem_102: 3e1fcd8b
add_6: 3e9796a7
getitem_105: 3e1f9ee8
relu_22: 3e4d5827
getitem_108: 3dc5b2e0
relu_23: 3dc4cef7
getitem_111: 3e3b1591
add_7: 3ec79d1e
getitem_114: 3e30d412
relu_24: 3e47a430
getitem_117: 3dcc7328
relu_25: 3dcc7328
getitem_120: 3f045495
add_8: 3f467b15
getitem_123: 3ebebdd6
relu_26: 3ee17411
getitem_126: 3e21a0e3
relu_27: 3e21a0e3
getitem_129: 3f8db7d6
add_9: 3ff29387
getitem_132: 3eaec5ae
relu_28: 3ee8ec12
mean: 3d8f60b3
getitem_135: 3e5449c2
relu_29: 3f5aaa49
view_1: 3f5aaa49
classifier.weight_output: 3b9a3c4b
node_linear_output: 3fe3b380
classifier.bias_output: 39c00689
ONNXTRT_Broadcast_output: 39c00689
logits: 3f983a80
