TRT-100300-EntropyCalibration2
input: 3cb3e423
conv2d: 3e2292be
val_0_output: 3c367d3d
ONNXTRT_Broadcast_output: 3c367d3d
val_1: 3de5e9cb
val_2: 3c010a14
val_3_output: 3c010a14
ONNXTRT_Broadcast_1_output: 3c010a14
val_4: 3c810a14
val_5_output: 3b810a14
ONNXTRT_Broadcast_3_output: 3b810a14
val_6: 3c010a14
gelu: 3db531e4
conv2d_1: 3d626696
conv2d_2: 3da329b3
mean: 3cdebc43
conv2d_3: 3d915f2f
relu: 3cbd00bf
conv2d_4: 3cc47800
sigmoid: 3bb6cf25
mul: 3d1e245a
conv2d_5: 3e4f988d
ONNXTRT_Broadcast_5_output: 3c367d3d
val_11: 3e12cae0
val_12: 3c010a14
ONNXTRT_Broadcast_7_output: 3c010a14
val_14: 3c810a14
ONNXTRT_Broadcast_9_output: 3b810a14
val_16: 3c010a14
gelu_1: 3e25445d
conv2d_6: 3d4ca194
add: 3d5b4c10
conv2d_7: 3daef838
conv2d_8: 3e7722ea
ONNXTRT_Broadcast_11_output: 3c367d3d
val_18: 3e2ec076
val_19: 3c010a14
ONNXTRT_Broadcast_13_output: 3c010a14
val_21: 3c810a14
ONNXTRT_Broadcast_15_output: 3b810a14
val_23: 3c010a14
gelu_2: 3e4eca74
conv2d_9: 3dd482cc
add_1: 3e233797
conv2d_10: 3e4cf8ec
conv2d_11: 3e81c4a8
ONNXTRT_Broadcast_17_output: 3c367d3d
val_25: 3e37851b
val_26: 3c010a14
ONNXTRT_Broadcast_19_output: 3c010a14
val_28: 3c810a14
ONNXTRT_Broadcast_21_output: 3b810a14
val_30: 3c010a14
gelu_3: 3e356b99
conv2d_12: 3f0bcf09
add_2: 3f394df0
conv2d_13: 3dae6e34
conv2d_14: 3d91335f
conv2d_15: 3dcea67e
ONNXTRT_Broadcast_23_output: 3c367d3d
val_32: 3d921fb5
val_33: 3c010a14
ONNXTRT_Broadcast_25_output: 3c010a14
val_35: 3c8104de
ONNXTRT_Broadcast_27_output: 3b810a14
val_37: 3c0104de
gelu_4: 3c80ee96
conv2d_16: 3d2dbe80
add_3: 3da3be3b
conv2d_17: 3dafe008
mean_1: 3cda9198
conv2d_18: 3c89ba00
relu_1: 3c879ae9
conv2d_19: 3cb4b073
sigmoid_1: 3bfda150
mul_1: 3d5f1b56
conv2d_20: 3d4f1e3a
ONNXTRT_Broadcast_29_output: 3c367d3d
val_41: 3d127461
val_42: 3c010a14
ONNXTRT_Broadcast_31_output: 3c010a14
val_44: 3c811074
ONNXTRT_Broadcast_33_output: 3b810a14
val_46: 3c011074
gelu_5: 3c8d123a
conv2d_21: 3def9160
add_4: 3e038c5c
conv2d_22: 3e1f51e1
conv2d_23: 3d1cfac2
ONNXTRT_Broadcast_35_output: 3c367d3d
val_48: 3cde00a9
val_49: 3c010a14
ONNXTRT_Broadcast_37_output: 3c010a14
val_51: 3c81f329
ONNXTRT_Broadcast_39_output: 3b810a14
val_53: 3c01f329
gelu_6: 3c3c7a48
conv2d_24: 3e223c69
add_5: 3e858dbd
conv2d_25: 3e9df276
conv2d_26: 3d827a5f
ONNXTRT_Broadcast_41_output: 3c367d3d
val_55: 3d388616
val_56: 3c010a14
ONNXTRT_Broadcast_43_output: 3c010a14
val_58: 3c834708
ONNXTRT_Broadcast_45_output: 3b810a14
val_60: 3c034708
gelu_7: 3c3f962f
conv2d_27: 3ee5b1a4
add_6: 3f430b9b
conv2d_28: 3dabe008
conv2d_29: 3d9f8b0b
conv2d_30: 3df84503
ONNXTRT_Broadcast_47_output: 3c367d3d
val_62: 3daf8d98
val_63: 3c010a14
ONNXTRT_Broadcast_49_output: 3c010a14
val_65: 3c810d1f
ONNXTRT_Broadcast_51_output: 3b810a14
val_67: 3c010d1f
gelu_8: 3c2b88ff
conv2d_31: 3dcf1b9b
add_7: 3e4a636b
conv2d_32: 3e87bee1
mean_2: 3d746c5a
conv2d_33: 3d6520a5
relu_2: 3d7782e7
conv2d_34: 3d89c8a6
sigmoid_2: 3c00865b
mul_2: 3da2f4d8
conv2d_35: 3df19f80
ONNXTRT_Broadcast_53_output: 3c367d3d
val_71: 3daada72
val_72: 3c010a14
ONNXTRT_Broadcast_55_output: 3c010a14
val_74: 3c810a14
ONNXTRT_Broadcast_57_output: 3b810a14
val_76: 3c010a14
gelu_9: 3c982a80
conv2d_36: 3e0b1f13
add_8: 3e7f9e70
conv2d_37: 3e173712
conv2d_38: 3d9b0d9f
ONNXTRT_Broadcast_59_output: 3c367d3d
val_78: 3d5b4743
val_79: 3c010a14
ONNXTRT_Broadcast_61_output: 3c010a14
val_81: 3c82f5e9
ONNXTRT_Broadcast_63_output: 3b810a14
val_83: 3c02f5e9
gelu_10: 3cb257fb
conv2d_39: 3e1100c9
add_9: 3e9e7c02
conv2d_40: 3e716b1f
mean_3: 3d9478d4
conv2d_41: 3bd7d137
relu_3: 3ccaa336
conv2d_42: 3cd2b0cd
sigmoid_3: 3bfca9ff
mul_3: 3de5ac0f
conv2d_43: 3dac07c4
ONNXTRT_Broadcast_65_output: 3c367d3d
val_87: 3d7349a2
val_88: 3c010a14
ONNXTRT_Broadcast_67_output: 3c010a14
val_90: 3c810a14
ONNXTRT_Broadcast_69_output: 3b810a14
val_92: 3c010a14
gelu_11: 3d1bdec5
conv2d_44: 3e089291
add_10: 3e7344a1
conv2d_45: 3e3833ca
conv2d_46: 3d981208
ONNXTRT_Broadcast_71_output: 3c367d3d
val_94: 3d570f62
val_95: 3c09a346
ONNXTRT_Broadcast_73_output: 3c010a14
val_97: 3c873a6e
ONNXTRT_Broadcast_75_output: 3b810a14
val_99: 3c073a6e
gelu_12: 3c54f0d7
conv2d_47: 3e60e157
add_11: 3ea502da
conv2d_48: 3eac2189
mean_4: 3da6e284
conv2d_49: 3bfc4cab
relu_4: 3cf0761e
conv2d_50: 3ca85679
sigmoid_4: 3bf4049c
mul_4: 3e065226
conv2d_51: 3dab34ab
ONNXTRT_Broadcast_77_output: 3c367d3d
val_103: 3d721f1a
val_104: 3c010a14
ONNXTRT_Broadcast_79_output: 3c010a14
val_106: 3c81ffb4
ONNXTRT_Broadcast_81_output: 3b810a14
val_108: 3c01ffb4
gelu_13: 3cc0eb26
conv2d_52: 3de2fa41
add_12: 3e668a5a
conv2d_53: 3e817090
conv2d_54: 3db4b234
ONNXTRT_Broadcast_83_output: 3c367d3d
val_110: 3d7f8afb
val_111: 3c010a14
ONNXTRT_Broadcast_85_output: 3c010a14
val_113: 3c8206e8
ONNXTRT_Broadcast_87_output: 3b810a14
val_115: 3c0206e8
gelu_14: 3c8eee92
conv2d_55: 3e35d427
add_13: 3eaca489
conv2d_56: 3eb2488c
mean_5: 3dbb64ac
conv2d_57: 3bcbdf8b
relu_5: 0
conv2d_58: 3c70cd50
sigmoid_5: 3b904460
mul_5: 3dcb44b0
conv2d_59: 3dbee206
ONNXTRT_Broadcast_89_output: 3c367d3d
val_119: 3d86f97f
val_120: 3c010a14
ONNXTRT_Broadcast_91_output: 3c010a14
val_122: 3c820584
ONNXTRT_Broadcast_93_output: 3b810a14
val_124: 3c020584
gelu_15: 3cf07387
conv2d_60: 3e02a9b4
add_14: 3e13dc1f
conv2d_61: 3e1648a2
conv2d_62: 3d961d8d
ONNXTRT_Broadcast_95_output: 3c367d3d
val_126: 3d544b97
val_127: 3c010a14
ONNXTRT_Broadcast_97_output: 3c010a14
val_129: 3c8530c6
ONNXTRT_Broadcast_99_output: 3b810a14
val_131: 3c0530c6
gelu_16: 3c6ebdd0
conv2d_63: 3dfae814
add_15: 3e6abd3e
conv2d_64: 3e30e436
mean_6: 3dbb614e
conv2d_65: 3ba7586c
relu_6: 3d3045ea
conv2d_66: 3ceea565
sigmoid_6: 3bfdf1ce
mul_6: 3dc8af6c
conv2d_67: 3dac256f
ONNXTRT_Broadcast_101_output: 3c367d3d
val_135: 3d737398
val_136: 3c010a14
ONNXTRT_Broadcast_103_output: 3c010a14
val_138: 3c830656
ONNXTRT_Broadcast_105_output: 3b810a14
val_140: 3c030656
gelu_17: 3c4d486f
conv2d_68: 3dd33c7b
add_16: 3e380df5
conv2d_69: 3e1f45f7
conv2d_70: 3d6ac654
ONNXTRT_Broadcast_107_output: 3c367d3d
val_142: 3d2602c4
val_143: 3c010a14
ONNXTRT_Broadcast_109_output: 3c010a14
val_145: 3c82dcd8
ONNXTRT_Broadcast_111_output: 3b810a14
val_147: 3c02dcd8
gelu_18: 3c3de2ab
conv2d_71: 3e16efd7
add_17: 3e7b5ad7
conv2d_72: 3e7472d2
mean_7: 3d94061a
conv2d_73: 3c0a77ed
relu_7: 3d07eff5
conv2d_74: 3d175da8
sigmoid_7: 3bfceebe
mul_7: 3ddf9b05
conv2d_75: 3d50e4cb
ONNXTRT_Broadcast_113_output: 3c367d3d
val_151: 3d13b5cd
val_152: 3c010a14
ONNXTRT_Broadcast_115_output: 3c010a14
val_154: 3c834b74
ONNXTRT_Broadcast_117_output: 3b810a14
val_156: 3c034b74
gelu_19: 3c2906bf
conv2d_76: 3ddb74c2
add_18: 3e0f5a11
conv2d_77: 3e34a9f1
conv2d_78: 3d8d9f14
ONNXTRT_Broadcast_119_output: 3c367d3d
val_158: 3d48486e
val_159: 3c010a14
ONNXTRT_Broadcast_121_output: 3c010a14
val_161: 3c81f163
ONNXTRT_Broadcast_123_output: 3b810a14
val_163: 3c01f163
gelu_20: 3c53eefa
conv2d_79: 3e021b48
add_19: 3e7554c3
conv2d_80: 3e66291d
mean_8: 3db1e975
conv2d_81: 3d43fcd4
relu_8: 3d6f2290
conv2d_82: 3d304e00
sigmoid_8: 3c19f7d3
mul_8: 3e252483
conv2d_83: 3d61a787
ONNXTRT_Broadcast_125_output: 3c367d3d
val_167: 3d1f8fd0
val_168: 3c010a14
ONNXTRT_Broadcast_127_output: 3c010a14
val_170: 3c81ffd6
ONNXTRT_Broadcast_129_output: 3b810a14
val_172: 3c01ffd6
gelu_21: 3c05f6d2
conv2d_84: 3e414f65
add_20: 3e62b718
conv2d_85: 3e8a62f7
conv2d_86: 3daaeb31
ONNXTRT_Broadcast_131_output: 3c367d3d
val_174: 3d71b730
val_175: 3c010a14
ONNXTRT_Broadcast_133_output: 3c010a14
val_177: 3c811223
ONNXTRT_Broadcast_135_output: 3b810a14
val_179: 3c011223
gelu_22: 3cc07288
conv2d_87: 3e49824e
add_21: 3ec32721
conv2d_88: 3ee61d84
conv2d_89: 3dc53fe4
ONNXTRT_Broadcast_137_output: 3c367d3d
val_181: 3d8b79fc
val_182: 3c010a14
ONNXTRT_Broadcast_139_output: 3c010a14
val_184: 3c811212
ONNXTRT_Broadcast_141_output: 3b810a14
val_186: 3c011212
gelu_23: 3ca4ff8c
conv2d_90: 3e7c6369
add_22: 3f2fb510
conv2d_91: 3e03c5d7
conv2d_92: 3da0f362
conv2d_93: 3da3b61d
ONNXTRT_Broadcast_143_output: 3c367d3d
val_188: 3d6785da
val_189: 3c010a14
ONNXTRT_Broadcast_145_output: 3c010a14
val_191: 3c8064cf
ONNXTRT_Broadcast_147_output: 3b810a14
val_193: 3c0064cf
gelu_24: 3be6480d
conv2d_94: 3dabafda
add_23: 3e00d0cc
conv2d_95: 3dfc6911
mean_9: 3cb84fd1
conv2d_96: 3dd5cc7a
relu_9: 3db0ab97
conv2d_97: 3e154336
sigmoid_9: 3c07cc29
mul_9: 3daaabf2
conv2d_98: 3d3a313e
ONNXTRT_Broadcast_149_output: 3c367d3d
val_197: 3d03a86b
val_198: 3c041773
ONNXTRT_Broadcast_151_output: 3c010a14
val_200: 3c81fbaa
ONNXTRT_Broadcast_153_output: 3b810a14
val_202: 3c01fbaa
gelu_25: 3be5d144
conv2d_99: 3e166189
add_24: 3e33b939
conv2d_100: 3e7ccb0e
conv2d_101: 3d75ddb4
ONNXTRT_Broadcast_155_output: 3c367d3d
val_204: 3d2dda81
val_205: 3c01f364
ONNXTRT_Broadcast_157_output: 3c010a14
val_207: 3c82d37a
ONNXTRT_Broadcast_159_output: 3b810a14
val_209: 3c02d37a
gelu_26: 3c642477
conv2d_102: 3e9fcd41
add_25: 3f13662f
mean_10: 3e131224
head.weight_output: 39c4ce92
node_linear_output: 3e0d619f
head.bias_output: 3c095234
ONNXTRT_Broadcast_161_output: 3c095234
logits: 3e0667c3
